#ifndef SINE_3L_MODEL_TFLITE_H
#define SINE_3L_MODEL_TFLITE_H

/*
 Author: Shubham, student of Mouli Sankaran 
 CAUTION: This is an auto generated file.
 DO NOT EDIT OR MAKE ANY CHANGES TO IT.
 This model data was generated on Tue Jun  8 09:50:18 2021

 The number of input to the model: 1
 The number of output from the model: 1

 Tools used:
 Python:3.7.10 (default, Feb 26 2021, 13:06:18) [MSC v.1916 64 bit (AMD64)]
 Numpy:1.19.2
 TensorFlow:2.4.1
 Keras: 2.4.0

 Model details are:
 NUM_OF_EPOCHS = 100
 BATCH_SIZE    = 16
*/

const int DENSE1_SIZE = 32;
const int DENSE2_SIZE = 16;
const int DENSE3_SIZE = 8;

unsigned int Sine_3L_model_tflite_len = 4916;

// Since the size is 4916 for this model the Tensor arena size needs to be
#define TENSOR_ARENA_SIZE 2*1024

unsigned char Sine_3L_model_tflite[] = {
0x1c,0x00,0x00,0x00,0x54,0x46,0x4c,0x33,0x14,0x00,0x20,0x00,
0x04,0x00,0x08,0x00,0x0c,0x00,0x10,0x00,0x14,0x00,0x00,0x00,
0x18,0x00,0x1c,0x00,0x14,0x00,0x00,0x00,0x03,0x00,0x00,0x00,
0x18,0x00,0x00,0x00,0x1c,0x00,0x00,0x00,0xb4,0x00,0x00,0x00,
0x1c,0x00,0x00,0x00,0x5c,0x00,0x00,0x00,0x54,0x00,0x00,0x00,
0x01,0x00,0x00,0x00,0x98,0x03,0x00,0x00,0x01,0x00,0x00,0x00,
0xbc,0x00,0x00,0x00,0x0f,0x00,0x00,0x00,0xe0,0x12,0x00,0x00,
0xdc,0x12,0x00,0x00,0x88,0x11,0x00,0x00,0xd4,0x10,0x00,0x00,
0x4c,0x10,0x00,0x00,0xe0,0x0f,0x00,0x00,0x10,0x0f,0x00,0x00,
0xbc,0x06,0x00,0x00,0x68,0x04,0x00,0x00,0xf4,0x03,0x00,0x00,
0xb8,0x12,0x00,0x00,0xb4,0x12,0x00,0x00,0xb0,0x12,0x00,0x00,
0xac,0x12,0x00,0x00,0x3c,0x00,0x00,0x00,0x00,0x00,0x00,0x00,
0x01,0x00,0x00,0x00,0x0c,0x00,0x00,0x00,0x08,0x00,0x0c,0x00,
0x04,0x00,0x08,0x00,0x08,0x00,0x00,0x00,0x08,0x00,0x00,0x00,
0x0e,0x00,0x00,0x00,0x13,0x00,0x00,0x00,0x6d,0x69,0x6e,0x5f,
0x72,0x75,0x6e,0x74,0x69,0x6d,0x65,0x5f,0x76,0x65,0x72,0x73,
0x69,0x6f,0x6e,0x00,0xea,0xee,0xff,0xff,0x04,0x00,0x00,0x00,
0x10,0x00,0x00,0x00,0x31,0x2e,0x35,0x2e,0x30,0x00,0x00,0x00,
0x00,0x00,0x00,0x00,0x00,0x00,0x00,0x00,0x0f,0x00,0x00,0x00,
0x4d,0x4c,0x49,0x52,0x20,0x43,0x6f,0x6e,0x76,0x65,0x72,0x74,
0x65,0x64,0x2e,0x00,0x00,0x00,0x0e,0x00,0x18,0x00,0x04,0x00,
0x08,0x00,0x0c,0x00,0x10,0x00,0x14,0x00,0x0e,0x00,0x00,0x00,
0x14,0x00,0x00,0x00,0x48,0x00,0x00,0x00,0x4c,0x00,0x00,0x00,
0x50,0x00,0x00,0x00,0x60,0x00,0x00,0x00,0x0d,0x00,0x00,0x00,
0xc8,0x11,0x00,0x00,0x58,0x11,0x00,0x00,0x54,0x10,0x00,0x00,
0xac,0x0f,0x00,0x00,0x24,0x0f,0x00,0x00,0xd0,0x0e,0x00,0x00,
0xfc,0x0d,0x00,0x00,0xa8,0x05,0x00,0x00,0x54,0x03,0x00,0x00,
0xa4,0x02,0x00,0x00,0xb0,0x01,0x00,0x00,0xe0,0x00,0x00,0x00,
0x64,0x00,0x00,0x00,0x01,0x00,0x00,0x00,0x00,0x00,0x00,0x00,
0x01,0x00,0x00,0x00,0x0c,0x00,0x00,0x00,0x04,0x00,0x00,0x00,
0x28,0x02,0x00,0x00,0x58,0x01,0x00,0x00,0x88,0x00,0x00,0x00,
0x10,0x00,0x00,0x00,0x04,0x00,0x00,0x00,0x6d,0x61,0x69,0x6e,
0x00,0x00,0x00,0x00,0xce,0xfe,0xff,0xff,0x00,0x00,0x00,0x08,
0x18,0x00,0x00,0x00,0x0c,0x00,0x00,0x00,0x04,0x00,0x00,0x00,
0x6c,0xee,0xff,0xff,0x01,0x00,0x00,0x00,0x0c,0x00,0x00,0x00,
0x03,0x00,0x00,0x00,0x0b,0x00,0x00,0x00,0x08,0x00,0x00,0x00,
0x04,0x00,0x00,0x00,0xe0,0xee,0xff,0xff,0x14,0x00,0x00,0x00,
0x0d,0x00,0x00,0x00,0x24,0x00,0x00,0x00,0x30,0x00,0x00,0x00,
0x10,0x00,0x00,0x00,0x02,0x00,0x00,0x00,0x01,0x00,0x00,0x00,
0x01,0x00,0x00,0x00,0x02,0x00,0x00,0x00,0xff,0xff,0xff,0xff,
0x01,0x00,0x00,0x00,0x08,0x00,0x00,0x00,0x49,0x64,0x65,0x6e,
0x74,0x69,0x74,0x79,0x00,0x00,0x00,0x00,0xc8,0xee,0xff,0xff,
0x42,0xff,0xff,0xff,0x00,0x00,0x00,0x08,0x1c,0x00,0x00,0x00,
0x10,0x00,0x00,0x00,0x04,0x00,0x00,0x00,0x66,0xfe,0xff,0xff,
0x00,0x00,0x00,0x01,0x01,0x00,0x00,0x00,0x0b,0x00,0x00,0x00,
0x03,0x00,0x00,0x00,0x0a,0x00,0x00,0x00,0x07,0x00,0x00,0x00,
0x03,0x00,0x00,0x00,0x58,0xef,0xff,0xff,0x14,0x00,0x00,0x00,
0x0c,0x00,0x00,0x00,0x24,0x00,0x00,0x00,0x74,0x00,0x00,0x00,
0x10,0x00,0x00,0x00,0x02,0x00,0x00,0x00,0x01,0x00,0x00,0x00,
0x08,0x00,0x00,0x00,0x02,0x00,0x00,0x00,0xff,0xff,0xff,0xff,
0x08,0x00,0x00,0x00,0x4c,0x00,0x00,0x00,0x73,0x65,0x71,0x75,
0x65,0x6e,0x74,0x69,0x61,0x6c,0x2f,0x64,0x65,0x6e,0x73,0x65,
0x5f,0x32,0x2f,0x4d,0x61,0x74,0x4d,0x75,0x6c,0x3b,0x73,0x65,
0x71,0x75,0x65,0x6e,0x74,0x69,0x61,0x6c,0x2f,0x64,0x65,0x6e,
0x73,0x65,0x5f,0x32,0x2f,0x52,0x65,0x6c,0x75,0x3b,0x73,0x65,
0x71,0x75,0x65,0x6e,0x74,0x69,0x61,0x6c,0x2f,0x64,0x65,0x6e,
0x73,0x65,0x5f,0x32,0x2f,0x42,0x69,0x61,0x73,0x41,0x64,0x64,
0x00,0x00,0x00,0x00,0xe0,0xf0,0xff,0xff,0x00,0x00,0x0e,0x00,
0x14,0x00,0x00,0x00,0x08,0x00,0x0c,0x00,0x07,0x00,0x10,0x00,
0x0e,0x00,0x00,0x00,0x00,0x00,0x00,0x08,0x1c,0x00,0x00,0x00,
0x10,0x00,0x00,0x00,0x04,0x00,0x00,0x00,0x32,0xff,0xff,0xff,
0x00,0x00,0x00,0x01,0x01,0x00,0x00,0x00,0x0a,0x00,0x00,0x00,
0x03,0x00,0x00,0x00,0x09,0x00,0x00,0x00,0x06,0x00,0x00,0x00,
0x02,0x00,0x00,0x00,0x24,0xf0,0xff,0xff,0x14,0x00,0x00,0x00,
0x0b,0x00,0x00,0x00,0x24,0x00,0x00,0x00,0x74,0x00,0x00,0x00,
0x10,0x00,0x00,0x00,0x02,0x00,0x00,0x00,0x01,0x00,0x00,0x00,
0x10,0x00,0x00,0x00,0x02,0x00,0x00,0x00,0xff,0xff,0xff,0xff,
0x10,0x00,0x00,0x00,0x4c,0x00,0x00,0x00,0x73,0x65,0x71,0x75,
0x65,0x6e,0x74,0x69,0x61,0x6c,0x2f,0x64,0x65,0x6e,0x73,0x65,
0x5f,0x31,0x2f,0x4d,0x61,0x74,0x4d,0x75,0x6c,0x3b,0x73,0x65,
0x71,0x75,0x65,0x6e,0x74,0x69,0x61,0x6c,0x2f,0x64,0x65,0x6e,
0x73,0x65,0x5f,0x31,0x2f,0x52,0x65,0x6c,0x75,0x3b,0x73,0x65,
0x71,0x75,0x65,0x6e,0x74,0x69,0x61,0x6c,0x2f,0x64,0x65,0x6e,
0x73,0x65,0x5f,0x31,0x2f,0x42,0x69,0x61,0x73,0x41,0x64,0x64,
0x00,0x00,0x00,0x00,0xac,0xf1,0xff,0xff,0x00,0x00,0x0e,0x00,
0x16,0x00,0x00,0x00,0x08,0x00,0x0c,0x00,0x07,0x00,0x10,0x00,
0x0e,0x00,0x00,0x00,0x00,0x00,0x00,0x08,0x24,0x00,0x00,0x00,
0x18,0x00,0x00,0x00,0x0c,0x00,0x00,0x00,0x00,0x00,0x06,0x00,
0x08,0x00,0x07,0x00,0x06,0x00,0x00,0x00,0x00,0x00,0x00,0x01,
0x01,0x00,0x00,0x00,0x09,0x00,0x00,0x00,0x03,0x00,0x00,0x00,
0x00,0x00,0x00,0x00,0x05,0x00,0x00,0x00,0x01,0x00,0x00,0x00,
0x0c,0x00,0x10,0x00,0x0b,0x00,0x00,0x00,0x0c,0x00,0x04,0x00,
0x0c,0x00,0x00,0x00,0x09,0x00,0x00,0x00,0x00,0x00,0x00,0x09,
0x01,0x00,0x00,0x00,0x14,0xf1,0xff,0xff,0x14,0x00,0x00,0x00,
0x0a,0x00,0x00,0x00,0x24,0x00,0x00,0x00,0x6c,0x00,0x00,0x00,
0x10,0x00,0x00,0x00,0x02,0x00,0x00,0x00,0x01,0x00,0x00,0x00,
0x20,0x00,0x00,0x00,0x02,0x00,0x00,0x00,0xff,0xff,0xff,0xff,
0x20,0x00,0x00,0x00,0x46,0x00,0x00,0x00,0x73,0x65,0x71,0x75,
0x65,0x6e,0x74,0x69,0x61,0x6c,0x2f,0x64,0x65,0x6e,0x73,0x65,
0x2f,0x4d,0x61,0x74,0x4d,0x75,0x6c,0x3b,0x73,0x65,0x71,0x75,
0x65,0x6e,0x74,0x69,0x61,0x6c,0x2f,0x64,0x65,0x6e,0x73,0x65,
0x2f,0x52,0x65,0x6c,0x75,0x3b,0x73,0x65,0x71,0x75,0x65,0x6e,
0x74,0x69,0x61,0x6c,0x2f,0x64,0x65,0x6e,0x73,0x65,0x2f,0x42,
0x69,0x61,0x73,0x41,0x64,0x64,0x00,0x00,0x38,0xf1,0xff,0xff,
0x8e,0xf2,0xff,0xff,0x04,0x00,0x00,0x00,0x20,0x00,0x00,0x00,
0x08,0x8c,0x76,0x3f,0x4b,0x92,0xf8,0xbe,0xff,0x26,0xf0,0xbe,
0x29,0xf9,0x58,0x3f,0x06,0x8a,0x2b,0x3f,0xdb,0x84,0x93,0x3f,
0xba,0xef,0x2e,0xbf,0xb7,0xd3,0x8f,0x3f,0x26,0xf2,0xff,0xff,
0x10,0x00,0x00,0x00,0x09,0x00,0x00,0x00,0x14,0x00,0x00,0x00,
0x30,0x00,0x00,0x00,0x02,0x00,0x00,0x00,0x01,0x00,0x00,0x00,
0x08,0x00,0x00,0x00,0x19,0x00,0x00,0x00,0x73,0x65,0x71,0x75,
0x65,0x6e,0x74,0x69,0x61,0x6c,0x2f,0x64,0x65,0x6e,0x73,0x65,
0x5f,0x33,0x2f,0x4d,0x61,0x74,0x4d,0x75,0x6c,0x00,0x00,0x00,
0xa8,0xf1,0xff,0xff,0xfe,0xf2,0xff,0xff,0x04,0x00,0x00,0x00,
0x00,0x02,0x00,0x00,0x7a,0x6c,0xf8,0x3e,0xc0,0x12,0xd1,0x3e,
0x34,0x72,0x1e,0x3f,0xec,0x0c,0xda,0x3e,0x3d,0x43,0x2e,0xbf,
0xd0,0xb5,0xf5,0x3e,0x4d,0x01,0x65,0xbd,0xa0,0x64,0x87,0xbe,
0x70,0x40,0x28,0xbf,0x94,0x9a,0xab,0x3e,0xb0,0xc8,0xbe,0x3e,
0xe1,0xe7,0x06,0xbf,0xe0,0xb2,0xe6,0xbe,0x59,0xf0,0xa6,0x3e,
0x76,0x6a,0x0b,0xbd,0x60,0x57,0xae,0x3d,0xc4,0xa9,0xe1,0x3d,
0x28,0x0c,0xc3,0x3e,0x3f,0x09,0x08,0xbd,0xc0,0xae,0xf3,0xbe,
0x5c,0x38,0xe5,0xbe,0x00,0xd9,0x22,0x3d,0xb2,0xba,0x5d,0xbf,
0xc8,0xdb,0x1a,0xbe,0x18,0x52,0x27,0x3e,0x34,0x11,0xe7,0x3d,
0x14,0x32,0xfa,0x3e,0x20,0x06,0xaf,0x3e,0x18,0x85,0xac,0xbe,
0xc0,0xd2,0x07,0xbd,0x5e,0x2b,0x72,0xbf,0xc0,0xaa,0xea,0x3c,
0xea,0x8b,0x18,0xbf,0x08,0x72,0xc0,0x3e,0x06,0x53,0xe8,0xbe,
0x94,0x5c,0xb4,0xbe,0x7c,0xad,0xd9,0x3e,0xa8,0x9e,0xc9,0xbe,
0x8f,0x6f,0x41,0xbf,0x90,0xb3,0xed,0x3d,0x68,0x18,0xa9,0x3e,
0xf5,0x1a,0x23,0xbc,0xa4,0x44,0x07,0x3f,0x8a,0xec,0xba,0x3e,
0xf0,0x69,0xcb,0xbe,0x30,0x28,0xfb,0xbe,0xfb,0xa1,0x97,0xbe,
0xdc,0x5d,0x8d,0x3e,0x76,0x36,0xe0,0x3c,0x70,0x06,0xfe,0x3e,
0x1b,0x5d,0xa6,0x3e,0x30,0x8b,0xf9,0x3d,0x5d,0x75,0x12,0xbf,
0x80,0xc5,0xa4,0x3d,0x9b,0x70,0x89,0xbc,0x50,0xf1,0xa0,0x3d,
0xb1,0x70,0x1f,0xbe,0xc0,0xf7,0x57,0x3e,0x3c,0x74,0xe1,0xbc,
0x80,0xf7,0xb0,0x3e,0x20,0x1f,0x1a,0x3e,0x51,0x61,0x24,0x3e,
0xf7,0x13,0x11,0x3f,0xb4,0xba,0xdb,0xbe,0x06,0xf3,0xc5,0x3e,
0xd8,0x8a,0x2b,0x3e,0xb1,0x09,0xc4,0x3d,0xac,0xe3,0xf8,0xbe,
0x09,0xbc,0xce,0xbe,0xfc,0x81,0xe6,0xbe,0xe0,0x06,0x1a,0xbd,
0xe4,0x1c,0xad,0xbe,0x0b,0xfb,0xf8,0xbe,0x59,0xcc,0x72,0x3e,
0xab,0xb4,0xae,0x3d,0xc9,0x57,0xda,0xbe,0x80,0xfd,0xc3,0x3c,
0x46,0xd3,0x9e,0xbe,0xd6,0x24,0x94,0x3e,0x00,0x43,0x9b,0x3e,
0xb4,0x38,0x13,0x3d,0xc0,0x5e,0x17,0xbe,0x5a,0x06,0x9b,0xbe,
0xc0,0x0a,0xc1,0x3c,0x00,0x8a,0xaa,0xbb,0xa4,0x34,0x89,0xbe,
0x40,0xef,0xb5,0x3e,0x64,0xde,0xf2,0xbe,0x78,0xaf,0xe2,0xbe,
0x24,0x0e,0xcd,0x3e,0x08,0x4a,0xbd,0xbf,0xa2,0xce,0xd2,0x3d,
0xd0,0x91,0x57,0xbe,0x24,0xfd,0xff,0x3e,0xee,0x31,0xf5,0xbe,
0x18,0x0f,0x62,0xbe,0xac,0x4e,0x21,0xbf,0xd0,0xc6,0x8d,0xbd,
0x4a,0xf0,0x71,0xbf,0x64,0xa8,0x93,0x3e,0x68,0x33,0xe3,0x3e,
0x40,0x23,0x34,0xbd,0xb1,0x65,0x1b,0xbf,0x68,0xe6,0x41,0x3e,
0xa8,0x87,0xa6,0xbe,0x1b,0xe2,0xee,0x3e,0xa5,0x95,0x8e,0x3e,
0x6a,0xd9,0xe2,0x3e,0xd4,0xc7,0xf8,0x3e,0xd0,0xd0,0x5e,0x3e,
0x0c,0x12,0xdc,0xbe,0x40,0x83,0x57,0x3d,0xee,0xaa,0x36,0x3e,
0xb8,0x0e,0x55,0x3e,0xc4,0x3e,0xa8,0x3e,0xa8,0xdd,0x0c,0xbe,
0x14,0x4e,0x87,0xbe,0x68,0xe8,0x49,0x3e,0xe8,0xec,0xea,0xbe,
0x70,0x06,0xc2,0xbd,0x74,0xf4,0xd4,0x3e,0x1b,0xfb,0xc5,0x3e,
0xb2,0x08,0xcb,0xbf,0x7a,0x17,0x70,0x3c,0x40,0x8b,0x34,0x3e,
0x00,0x80,0x95,0x39,0x9f,0x15,0x00,0xbf,0xd8,0x2d,0x56,0xbe,
0x76,0xf4,0xff,0xff,0x10,0x00,0x00,0x00,0x08,0x00,0x00,0x00,
0x14,0x00,0x00,0x00,0x30,0x00,0x00,0x00,0x02,0x00,0x00,0x00,
0x08,0x00,0x00,0x00,0x10,0x00,0x00,0x00,0x19,0x00,0x00,0x00,
0x73,0x65,0x71,0x75,0x65,0x6e,0x74,0x69,0x61,0x6c,0x2f,0x64,
0x65,0x6e,0x73,0x65,0x5f,0x32,0x2f,0x4d,0x61,0x74,0x4d,0x75,
0x6c,0x00,0x00,0x00,0xf8,0xf3,0xff,0xff,0x4e,0xf5,0xff,0xff,
0x04,0x00,0x00,0x00,0x00,0x08,0x00,0x00,0xb7,0xae,0x5c,0xbe,
0x42,0x67,0x9b,0x3e,0x14,0x20,0xdc,0xbd,0x1d,0xac,0xc2,0x3c,
0x44,0xa0,0xc8,0x3d,0xaf,0x78,0x81,0xbc,0x44,0x6a,0xa1,0x3e,
0x69,0x66,0x49,0xbe,0x58,0x78,0x89,0x3d,0x50,0xcb,0x78,0xbd,
0xd3,0x53,0x27,0xbf,0xfc,0xbb,0xf8,0xbd,0x40,0x21,0x6e,0xbd,
0x97,0x90,0x5a,0x3d,0xee,0x95,0x9e,0xbe,0xf5,0xdb,0x9d,0x3e,
0x12,0x21,0x29,0x3e,0xb9,0xb3,0x95,0xbd,0x91,0xdd,0xaf,0xbe,
0x30,0x28,0x9f,0xbc,0x7e,0x16,0x6c,0xbe,0x4a,0x4f,0x5a,0xbe,
0xc2,0x82,0x4d,0x3e,0x6a,0x9a,0x2d,0x3e,0x5b,0xc0,0x98,0x3d,
0x48,0xd5,0xc5,0xbd,0x7c,0x4f,0xe3,0xbd,0x87,0x3a,0x8d,0x3e,
0xb2,0x67,0x0c,0x3e,0x79,0x99,0x4e,0xbe,0xa1,0x0e,0x8f,0x3e,
0x7b,0x18,0x90,0x3e,0xe0,0xc6,0xef,0xbc,0xf6,0xdf,0x3c,0x3e,
0xa8,0xd0,0xe5,0x3d,0xa9,0x16,0xa2,0xbe,0x43,0xb6,0xa8,0x3e,
0x8e,0x17,0x9e,0xbe,0x00,0x6c,0xa0,0xbe,0x51,0xf9,0xab,0xbe,
0x88,0x12,0x6a,0x3d,0x44,0xf9,0xa2,0xbe,0xfd,0x99,0x4b,0xbe,
0x71,0xaf,0x87,0x3e,0x60,0x1b,0xf7,0xbc,0xd3,0x0d,0xac,0xbe,
0x88,0x14,0x52,0xbe,0xf8,0xe4,0x6a,0xbd,0xb1,0x3b,0x16,0xbe,
0x49,0xbd,0xa1,0x3e,0x06,0xe7,0x9a,0xbe,0xc4,0xb5,0x32,0xbe,
0x84,0x3d,0xcf,0xbd,0x39,0xac,0x46,0xbe,0x7d,0x7c,0xa1,0xbe,
0x0d,0x45,0x6c,0xbe,0x60,0x9b,0x54,0xbc,0xee,0x6e,0x56,0x3e,
0x82,0x74,0x51,0x3e,0x99,0x6a,0xb2,0x3e,0x58,0xdb,0x9b,0xbd,
0x04,0x58,0x94,0x3d,0x6e,0x8f,0xa9,0xbe,0xec,0x66,0x85,0xbd,
0x4c,0x04,0xd0,0x3d,0xae,0x19,0xf1,0x3c,0xf7,0xe0,0x29,0xbe,
0x75,0x82,0x68,0x3e,0x68,0x35,0x9f,0xbd,0xf2,0xfb,0x8b,0xbd,
0x70,0x5f,0x07,0x3d,0xf0,0x5c,0xa8,0xbd,0x78,0xaa,0x33,0x3d,
0xbc,0x4d,0x9c,0xbe,0xb4,0x33,0x7b,0xbd,0xe4,0x3b,0x9b,0xbd,
0x22,0xdb,0x46,0x3e,0x5a,0xee,0x2e,0xbe,0x32,0x23,0x9f,0xbd,
0xc2,0x59,0x3d,0x3e,0xa8,0xaf,0x97,0x3d,0x62,0x72,0x96,0xbd,
0x69,0x31,0xee,0x3c,0x34,0xbf,0xfd,0x3d,0x9a,0xb1,0x9a,0xbe,
0x2e,0x9a,0x0d,0x3e,0xcc,0x69,0x80,0x3d,0x60,0x1d,0xad,0xbc,
0xf1,0x6f,0xd4,0xbd,0x24,0xe2,0x91,0xbe,0x93,0xf1,0x83,0xbe,
0x1a,0x1f,0x05,0x3e,0x56,0xf3,0x1b,0x3e,0x5b,0x58,0x06,0xbf,
0x1f,0x6a,0x6d,0x3e,0xed,0xe3,0x82,0x3e,0x80,0x14,0x66,0xbd,
0xb6,0x88,0x64,0xbe,0xd2,0xba,0x1d,0x3e,0xa6,0xa1,0xa0,0xbe,
0x5f,0xf5,0xb2,0x3e,0x9d,0x69,0x3b,0xbe,0xf8,0xd2,0x77,0xbe,
0x43,0x97,0x9b,0x3e,0x58,0x8f,0xc3,0xbd,0xa3,0x8a,0x70,0xbe,
0xa2,0xa4,0x52,0x3e,0x5c,0x65,0xeb,0x3d,0xda,0x11,0x10,0x3e,
0x60,0x26,0x65,0xbe,0xca,0xd6,0xfc,0xbd,0x94,0x6f,0xe9,0xbd,
0x20,0xb5,0x31,0xbd,0x60,0x76,0x2a,0xbd,0x80,0x45,0xa8,0xbc,
0xd0,0x4e,0x06,0xbd,0xe4,0xe5,0xaf,0xbd,0xd8,0xcd,0x5d,0xbe,
0xb7,0x25,0x03,0xbe,0x30,0xb3,0xeb,0x3d,0x31,0x53,0x87,0x3e,
0x35,0x94,0xac,0x3e,0x66,0xf0,0x6b,0x3e,0x80,0x0a,0x9b,0x3b,
0x38,0x62,0x8f,0x3d,0x0a,0xd4,0x75,0xbe,0xf1,0x4f,0x99,0x3e,
0x80,0x19,0x52,0x3b,0xe0,0xf9,0x69,0xbd,0x41,0x7f,0x98,0xbc,
0x42,0xad,0x7d,0x3e,0x39,0x80,0x10,0x3e,0x00,0x4d,0xb1,0x3c,
0x4e,0x60,0xd4,0xbe,0x23,0x35,0xf6,0x3c,0x8d,0x11,0x87,0xbd,
0x9c,0x8c,0x8f,0xbd,0xc8,0x6d,0x3f,0xbd,0x73,0xd4,0x69,0x3e,
0xfb,0x32,0x8f,0x3e,0x80,0x14,0x65,0x3b,0xc3,0x5e,0xb8,0x3e,
0x77,0x06,0x67,0x3e,0x2d,0x63,0xb0,0xbe,0x50,0xa2,0x5d,0xbe,
0xf2,0x30,0x65,0xbe,0x7d,0x5a,0xea,0xbe,0xe5,0x17,0x55,0xbe,
0x85,0xda,0x80,0xbe,0x6b,0x70,0x48,0xbe,0x70,0xf2,0x9a,0xbe,
0x0c,0x7d,0xa1,0xbd,0xdb,0xa8,0xd3,0x3e,0xe8,0x5d,0x08,0x3e,
0x95,0xe4,0x05,0xbe,0xa0,0xb4,0x79,0xbc,0x50,0xac,0x35,0xbe,
0x23,0xf0,0x49,0x3e,0xa2,0x6c,0xe6,0x3e,0x9c,0x55,0xc8,0xbd,
0x42,0x14,0x78,0x3e,0xd0,0xc6,0x3e,0x3d,0xec,0x4c,0xc9,0x3d,
0x70,0xc6,0x1e,0x3d,0x5f,0xc2,0x83,0x3e,0x73,0x91,0x5e,0xbe,
0xf8,0x54,0x8a,0xbe,0x60,0xcc,0x00,0x3c,0x84,0x35,0xb5,0xbd,
0xa1,0x08,0x96,0x3e,0xf7,0x53,0x9f,0x3e,0xbc,0x51,0xc6,0x3d,
0x2b,0xa4,0xa4,0x3e,0x88,0x4f,0x5c,0xbd,0x78,0x1c,0x9e,0xbe,
0xd9,0x24,0xa0,0x3e,0xf1,0xd8,0x7e,0xbe,0x84,0xd0,0x6a,0xbe,
0x21,0x7c,0x9e,0xbe,0x29,0x4b,0x85,0x3e,0x20,0xd2,0x95,0xbe,
0x80,0xb5,0xa4,0x3b,0xca,0x64,0x51,0x3e,0x03,0x4c,0x98,0x3e,
0x4b,0xd2,0xa5,0xbe,0xeb,0x90,0x8c,0xbe,0xe8,0xdb,0x0b,0x3e,
0x93,0x8b,0xaf,0xbe,0xaa,0xc9,0x7a,0x3e,0x84,0x1b,0x77,0xbe,
0x9f,0x21,0xb3,0xbe,0x8e,0x25,0x09,0x3e,0x7c,0xb4,0x25,0xbe,
0x6c,0x36,0x8c,0x3d,0xcd,0x15,0xb1,0x3e,0x7c,0x5f,0xd8,0x3b,
0x86,0x97,0x78,0x3e,0x03,0x05,0xa2,0xbe,0xb2,0x8b,0x94,0xbe,
0x78,0xbe,0xbe,0x3d,0x40,0xe0,0x8a,0xbc,0x35,0x12,0x63,0xbe,
0xd5,0xd5,0x0c,0xbf,0xe1,0x94,0x85,0x3e,0x50,0x8e,0x05,0x3e,
0xa5,0x6b,0xa7,0x3e,0x0b,0xd4,0x5a,0xbe,0xe8,0x1c,0xab,0xbd,
0x43,0x92,0x4e,0xbe,0xd3,0xf9,0x81,0x3e,0x19,0xe6,0x3e,0xbe,
0x60,0x4a,0x98,0xbe,0x6c,0xed,0x11,0xbe,0xc4,0x46,0x9c,0xbe,
0xcb,0x0f,0x36,0xbe,0x58,0x8a,0x9c,0xbd,0xef,0x80,0x11,0x3e,
0x98,0xa3,0x08,0x3d,0x80,0x92,0x7f,0xbc,0x30,0x24,0x4d,0x3d,
0xf0,0x88,0xd2,0xbc,0x48,0xfc,0x88,0xbe,0x25,0xad,0xd7,0x3e,
0x94,0xa1,0x91,0xbd,0xc8,0x23,0x42,0xbd,0xe8,0x74,0xed,0xbd,
0x88,0x77,0x10,0x3d,0xf8,0xa4,0x0c,0xbe,0x02,0xea,0x57,0x3e,
0xb7,0x54,0x21,0xbe,0xf0,0x63,0x9b,0xbe,0x4c,0xcb,0xa3,0xbe,
0xca,0x90,0xaf,0xbe,0xda,0xc5,0x52,0x3e,0x03,0xe2,0x02,0xbe,
0xb5,0xd1,0x9a,0x3e,0x74,0x6f,0x2d,0xbe,0x94,0x13,0x8f,0xbe,
0x3b,0xd4,0xb1,0xbe,0x3e,0xe5,0x5f,0x3e,0x40,0x21,0xdc,0x3c,
0xee,0x1f,0x70,0x3e,0x25,0xe7,0x40,0xbe,0x71,0x45,0xae,0x3e,
0x03,0x71,0x96,0xbe,0xf6,0x7d,0x37,0x3e,0x69,0x60,0x5f,0xbe,
0x88,0x91,0x5b,0xbe,0xcf,0x23,0x95,0x3e,0x1c,0x10,0x8c,0x3d,
0xc5,0x6f,0x8e,0x3e,0x3e,0x94,0x55,0x3e,0xa6,0xa4,0x1c,0x3e,
0xe4,0x11,0xd1,0x3d,0xf8,0x81,0x27,0xbd,0x58,0x65,0x54,0xbd,
0xbd,0x13,0xb4,0x3e,0x28,0x9f,0xf4,0xbe,0x02,0xc7,0x34,0x3e,
0x88,0x21,0x53,0xbe,0x18,0x0a,0x83,0xbe,0xda,0xfe,0x32,0xbf,
0xc5,0x2a,0x2d,0xbe,0x18,0x4b,0x65,0x3d,0x1a,0xdf,0x3d,0x3e,
0x56,0x69,0x9a,0xbe,0xb1,0x45,0x45,0x3e,0xd5,0x8b,0x5f,0xbe,
0x72,0xfe,0x74,0x3e,0x21,0x5f,0x2c,0xbc,0xac,0xb4,0x2f,0x3e,
0x5a,0xf4,0x3a,0x3e,0xe7,0x18,0xa9,0x3e,0xc9,0xf9,0x49,0x3e,
0x55,0x37,0xa0,0xbe,0x78,0x71,0x0f,0xbd,0xdc,0x56,0x57,0xbe,
0xb3,0x9a,0x6c,0xbe,0x52,0x59,0x59,0x3e,0x4e,0xd1,0x35,0xbe,
0xef,0x2a,0xe2,0xbe,0xb4,0x4a,0x69,0xbe,0x63,0xad,0x04,0xbe,
0xca,0xf8,0x70,0x3e,0xc0,0x1c,0x63,0xbe,0x8b,0xeb,0x12,0xbe,
0x86,0x2e,0x00,0x3f,0xfe,0x2c,0x79,0x3e,0xd0,0x73,0x84,0xbe,
0x3b,0x9c,0xc1,0x3d,0xa0,0xba,0x9d,0x3c,0x64,0xd8,0x8a,0x3e,
0x70,0x68,0xb8,0x3d,0x36,0x34,0x64,0x3e,0x78,0xab,0x89,0x3d,
0x0f,0xd9,0x42,0x3e,0x6c,0x03,0x94,0xbd,0xd2,0xfb,0x3a,0x3e,
0xf0,0x4b,0x52,0xbe,0x1d,0x40,0x8d,0xbe,0xd4,0x4d,0x7c,0xbe,
0x5c,0x05,0x40,0x3d,0x73,0xe2,0x96,0x3e,0xfc,0x64,0xb2,0xbd,
0x00,0xec,0x57,0x3b,0x6c,0xa4,0x86,0x3e,0xef,0x5e,0xbc,0xbd,
0xb0,0xed,0x4b,0x3d,0xe2,0x6e,0x20,0xbe,0x94,0xb3,0x9c,0xbd,
0xd0,0x4b,0x5a,0xbd,0x7a,0xff,0x21,0x3e,0xb3,0xfa,0x6e,0xbe,
0xf1,0x96,0x9e,0x3e,0xba,0x00,0x1c,0x3e,0x4e,0x44,0x67,0xbe,
0x40,0x6e,0x2c,0xbc,0x01,0x4a,0xbe,0x3e,0x2c,0xf5,0xbc,0x3d,
0xcd,0xc1,0xa6,0x3e,0x93,0x1e,0x8a,0x3e,0xb2,0xdd,0x9b,0xbe,
0x86,0xa8,0x61,0x3e,0x25,0xcd,0x35,0x3e,0x30,0xb8,0x77,0xbe,
0x07,0x44,0x0b,0x3e,0x46,0x82,0x94,0x3c,0xdf,0x72,0x9a,0xbe,
0x34,0x07,0x13,0xbe,0x15,0xc9,0x70,0xbe,0xba,0x81,0x14,0xbf,
0x38,0x94,0x6f,0xbd,0x88,0xe5,0x9c,0xbe,0x48,0x29,0x15,0x3e,
0xde,0xcf,0x71,0xbe,0xa2,0x22,0x54,0x3e,0xf8,0xc1,0xa6,0xbe,
0xd4,0xe5,0x77,0x3e,0xdb,0x3e,0xd2,0x3c,0x10,0x01,0x9a,0xbc,
0x24,0x34,0x98,0xbd,0xc0,0x82,0xe4,0x3c,0x00,0x65,0x94,0x3a,
0x72,0x34,0xde,0xbd,0x3c,0x46,0x4e,0xbe,0x41,0x8e,0x0c,0xbe,
0xf8,0xe3,0x7c,0x3d,0x08,0xf1,0x08,0x3d,0x8e,0xf5,0x15,0xbe,
0xc7,0x48,0x07,0xbf,0x7a,0xe2,0x94,0x3e,0x6e,0x97,0xaf,0xbe,
0x68,0x50,0xb1,0xbd,0xf5,0xc4,0xb3,0x3e,0xd8,0x03,0x03,0xbd,
0xc7,0xed,0x66,0x3e,0x00,0xc6,0xbb,0x3d,0xb8,0x01,0x97,0x3e,
0xf1,0xd9,0x70,0xbe,0x68,0xdd,0x1f,0xbd,0xa0,0x3d,0x14,0x3d,
0x59,0xe7,0xb4,0x3e,0x62,0x32,0xfd,0xbd,0x6a,0x6b,0x73,0x3e,
0xcc,0xd0,0x92,0xbd,0x63,0xec,0x9d,0xbd,0x8e,0xbd,0x60,0xbe,
0x25,0x96,0xae,0x3e,0xb9,0x44,0x84,0x3e,0xf0,0x38,0x1e,0xbe,
0x3e,0xe4,0x77,0x3e,0xc0,0x52,0xac,0xbd,0xed,0x54,0x98,0xbe,
0x8a,0x25,0x53,0x3e,0x16,0xeb,0x7d,0xbe,0x00,0x7d,0x35,0xbb,
0x23,0xfb,0x53,0x3d,0xb0,0xe8,0x7e,0xbd,0xf0,0xac,0x93,0xbc,
0x00,0x3a,0x13,0xbb,0x50,0x42,0x37,0x3d,0x95,0x9f,0xac,0x3e,
0x94,0xcf,0xad,0xbd,0xc7,0xbf,0x98,0x3e,0xec,0xa3,0xea,0x3d,
0xc2,0xd5,0x7e,0x3e,0x1d,0x38,0xb3,0xbe,0x9a,0x6e,0x8e,0xbe,
0xea,0x95,0x59,0x3e,0x39,0xf1,0x87,0x3e,0xa4,0x75,0x86,0x3d,
0x7a,0x12,0x7c,0xbe,0xce,0xbb,0x39,0xbe,0x08,0x50,0x64,0xbe,
0x8b,0x89,0xa6,0x3e,0xc3,0x87,0xa6,0x3e,0xb0,0x5b,0xe5,0x3c,
0xca,0xb6,0xb0,0xbe,0x42,0x36,0x4d,0x3e,0xa6,0xca,0x98,0xbe,
0xf1,0x00,0xb2,0x3e,0x95,0xd9,0x9f,0x3e,0x88,0xc7,0x94,0xbe,
0x96,0x16,0x57,0x3e,0xd0,0xcb,0xae,0xbc,0xc7,0x89,0x8a,0x3e,
0xaa,0x40,0xb1,0xbe,0x1a,0x84,0x27,0x3e,0x40,0x7c,0x40,0xbd,
0x6b,0x17,0x8e,0x3e,0xd0,0xee,0x9c,0xbe,0xe1,0x62,0x9d,0xbe,
0x30,0x9b,0xc3,0x3d,0xd8,0x23,0x2a,0x3d,0xda,0x67,0x41,0x3e,
0x3c,0x9a,0xa0,0xbd,0x82,0x94,0x69,0xbe,0x3a,0x67,0xa4,0xbe,
0x16,0x35,0x96,0xbe,0x3e,0x41,0x51,0xbe,0xb3,0x77,0x85,0x3e,
0x5e,0xa6,0xaa,0xbe,0xe9,0x80,0x76,0xbd,0x22,0xac,0x67,0x3e,
0x3e,0xfa,0x42,0x3e,0xe0,0xe1,0x6b,0x3c,0x81,0xf2,0xa4,0x3e,
0x36,0x35,0x5c,0x3e,0x39,0x20,0xb4,0x3e,0xf6,0x4d,0x39,0xbc,
0x8d,0x74,0xa4,0x3e,0x70,0x69,0xcb,0x3c,0x6b,0x5a,0xa0,0x3e,
0xda,0x60,0x25,0x3e,0x33,0xb6,0x83,0xbe,0xd0,0xf2,0xd1,0xbc,
0x6e,0xe3,0x51,0x3e,0xda,0x47,0x76,0xbe,0x84,0xdc,0xbc,0xbd,
0xf8,0x0a,0xe7,0x3d,0xd8,0x82,0x9a,0xbe,0x34,0xe3,0xef,0xbd,
0x40,0xfd,0xcc,0xbc,0xd6,0x6d,0x43,0xbe,0x43,0x0c,0x18,0xbe,
0x34,0xc8,0x98,0xbd,0x7d,0x50,0x48,0x3e,0x00,0x02,0xc0,0xbd,
0x25,0xa9,0x9d,0xbe,0x9a,0x91,0x1b,0x3d,0xdc,0xed,0xcd,0xbd,
0x3a,0x06,0x78,0x3e,0xe5,0x85,0xaf,0x3e,0x5d,0xcf,0xad,0xbe,
0x60,0xba,0x9f,0x3e,0x0b,0x64,0xd8,0xbc,0x45,0x8c,0x29,0xbe,
0x8c,0x22,0x12,0x3e,0xca,0xdb,0x8d,0xbe,0xf4,0x02,0xbf,0xbd,
0xf0,0xf8,0x23,0xbd,0x18,0x99,0x9c,0x3e,0x6f,0xe3,0x85,0x3e,
0xa4,0x7d,0x14,0xbe,0x33,0xef,0x57,0xbe,0xd2,0xc3,0xf0,0x3d,
0x26,0x90,0x88,0xbe,0x12,0xe4,0x39,0x3e,0x02,0x81,0x5a,0xbe,
0x88,0x84,0x8a,0xbe,0x50,0x5a,0xdc,0xbc,0x02,0xf9,0x60,0xbe,
0x15,0x61,0x02,0xbe,0x1f,0xb4,0xb4,0x3e,0x90,0xfa,0x26,0xbd,
0x18,0x43,0xca,0x3d,0x90,0x7c,0x20,0xbe,0xbf,0x45,0xc3,0xbe,
0xbf,0xde,0x47,0x3e,0x18,0xae,0xfa,0x3d,0xa2,0xe2,0x48,0x3e,
0x5b,0x08,0x8a,0x3e,0x40,0xa7,0xe2,0xbc,0x4c,0xb6,0x80,0xbd,
0x30,0xa0,0xfb,0xbc,0x00,0xca,0xbb,0xbb,0x5b,0x71,0x9e,0xbe,
0xa2,0x47,0x88,0xbe,0x93,0x43,0xa1,0x3e,0x23,0x20,0x27,0xbe,
0x88,0x9b,0x63,0xbd,0x4c,0x90,0xca,0x3d,0x3e,0xfa,0xfa,0xbd,
0x64,0xb7,0xb7,0xbd,0xfa,0x1b,0x7c,0xbe,0x37,0x39,0x23,0xbe,
0x35,0x35,0x31,0xbe,0xa6,0xfe,0x63,0xbe,0x69,0xa2,0xaf,0x3e,
0xee,0x3d,0x2f,0x3e,0xbe,0xa4,0x87,0xbe,0x18,0x90,0x1c,0xbe,
0x78,0x21,0x88,0xbe,0xa4,0xd6,0xaf,0x3d,0x50,0xdd,0x0d,0x3e,
0x1d,0xdd,0x9c,0x3e,0xd8,0x86,0x40,0xbd,0x83,0xc6,0xa1,0x3e,
0x68,0x66,0x50,0x3d,0xd5,0xe4,0x21,0xbe,0x00,0x29,0x3c,0x3d,
0x4b,0xa0,0xa8,0xbe,0xc6,0xfc,0xff,0xff,0x10,0x00,0x00,0x00,
0x07,0x00,0x00,0x00,0x14,0x00,0x00,0x00,0x30,0x00,0x00,0x00,
0x02,0x00,0x00,0x00,0x10,0x00,0x00,0x00,0x20,0x00,0x00,0x00,
0x19,0x00,0x00,0x00,0x73,0x65,0x71,0x75,0x65,0x6e,0x74,0x69,
0x61,0x6c,0x2f,0x64,0x65,0x6e,0x73,0x65,0x5f,0x31,0x2f,0x4d,
0x61,0x74,0x4d,0x75,0x6c,0x00,0x00,0x00,0x48,0xfc,0xff,0xff,
0x9e,0xfd,0xff,0xff,0x04,0x00,0x00,0x00,0x80,0x00,0x00,0x00,
0xf8,0xa5,0x6c,0xbe,0x8b,0x97,0x7b,0x3e,0x8c,0x7d,0xb4,0xbd,
0x2d,0x02,0x2c,0x3e,0x45,0x3f,0x9f,0xbe,0x12,0x31,0xbc,0x3e,
0xae,0x30,0x54,0x3e,0x89,0xc0,0xb0,0x3e,0xdd,0x49,0xd6,0xbe,
0xee,0x15,0xbe,0xbe,0x74,0x1c,0x07,0x3e,0x58,0x26,0x07,0xbe,
0xd0,0xf6,0x81,0xbe,0xcb,0xec,0x23,0x3e,0x16,0x80,0x11,0xbb,
0x08,0xd9,0x51,0xbd,0xec,0x8a,0xee,0xbd,0x71,0x2c,0x8c,0x3e,
0x85,0x1b,0xe1,0x3e,0x50,0x1f,0xb4,0xbd,0x88,0x19,0x40,0xbd,
0x10,0x17,0xb3,0xbd,0x3c,0x87,0xeb,0xbd,0x88,0x81,0x22,0xbd,
0xf9,0x43,0x8b,0x3e,0x2a,0xd5,0x46,0xbe,0x48,0x4b,0x6d,0xbe,
0x85,0xc3,0x41,0xbe,0xc0,0x95,0xa8,0xbb,0xe0,0x22,0xed,0x3d,
0xa5,0x10,0x66,0x3b,0xa2,0x02,0x84,0xbe,0x96,0xfd,0xff,0xff,
0x10,0x00,0x00,0x00,0x06,0x00,0x00,0x00,0x14,0x00,0x00,0x00,
0x2c,0x00,0x00,0x00,0x02,0x00,0x00,0x00,0x20,0x00,0x00,0x00,
0x01,0x00,0x00,0x00,0x17,0x00,0x00,0x00,0x73,0x65,0x71,0x75,
0x65,0x6e,0x74,0x69,0x61,0x6c,0x2f,0x64,0x65,0x6e,0x73,0x65,
0x2f,0x4d,0x61,0x74,0x4d,0x75,0x6c,0x00,0x14,0xfd,0xff,0xff,
0x6a,0xfe,0xff,0xff,0x04,0x00,0x00,0x00,0x04,0x00,0x00,0x00,
0xb2,0x7c,0x70,0xbd,0xe6,0xfd,0xff,0xff,0x10,0x00,0x00,0x00,
0x05,0x00,0x00,0x00,0x10,0x00,0x00,0x00,0x44,0x00,0x00,0x00,
0x01,0x00,0x00,0x00,0x01,0x00,0x00,0x00,0x32,0x00,0x00,0x00,
0x73,0x65,0x71,0x75,0x65,0x6e,0x74,0x69,0x61,0x6c,0x2f,0x64,
0x65,0x6e,0x73,0x65,0x5f,0x33,0x2f,0x42,0x69,0x61,0x73,0x41,
0x64,0x64,0x2f,0x52,0x65,0x61,0x64,0x56,0x61,0x72,0x69,0x61,
0x62,0x6c,0x65,0x4f,0x70,0x2f,0x72,0x65,0x73,0x6f,0x75,0x72,
0x63,0x65,0x00,0x00,0x7c,0xfd,0xff,0xff,0xd2,0xfe,0xff,0xff,
0x04,0x00,0x00,0x00,0x20,0x00,0x00,0x00,0xd0,0x4a,0x9b,0x3d,
0x51,0x7c,0xbd,0x3d,0x31,0x4b,0x3e,0x3d,0x18,0x4c,0x70,0xbd,
0x32,0x87,0x3b,0x3d,0xd1,0xc8,0x61,0xbe,0x62,0xae,0x84,0x3d,
0x27,0x28,0x8b,0xbe,0x6a,0xfe,0xff,0xff,0x10,0x00,0x00,0x00,
0x04,0x00,0x00,0x00,0x10,0x00,0x00,0x00,0x44,0x00,0x00,0x00,
0x01,0x00,0x00,0x00,0x08,0x00,0x00,0x00,0x32,0x00,0x00,0x00,
0x73,0x65,0x71,0x75,0x65,0x6e,0x74,0x69,0x61,0x6c,0x2f,0x64,
0x65,0x6e,0x73,0x65,0x5f,0x32,0x2f,0x42,0x69,0x61,0x73,0x41,
0x64,0x64,0x2f,0x52,0x65,0x61,0x64,0x56,0x61,0x72,0x69,0x61,
0x62,0x6c,0x65,0x4f,0x70,0x2f,0x72,0x65,0x73,0x6f,0x75,0x72,
0x63,0x65,0x00,0x00,0x00,0xfe,0xff,0xff,0x56,0xff,0xff,0xff,
0x04,0x00,0x00,0x00,0x40,0x00,0x00,0x00,0xbe,0xdf,0x0d,0x3e,
0x00,0x00,0x00,0x00,0x07,0x96,0x53,0x3e,0x00,0x00,0x00,0x00,
0xcd,0x2c,0x58,0x3e,0x00,0x00,0x00,0x00,0x07,0x4e,0x60,0x3e,
0x00,0x00,0x00,0x00,0x47,0x47,0x37,0x3e,0x9f,0x26,0xe6,0xbd,
0xf8,0xfd,0xa9,0x3e,0xb2,0x65,0xa2,0xbc,0x00,0x00,0x00,0x00,
0xbb,0xcc,0xd3,0xbc,0xb3,0x75,0x57,0x3e,0x00,0x00,0x00,0x00,
0x0e,0xff,0xff,0xff,0x10,0x00,0x00,0x00,0x03,0x00,0x00,0x00,
0x10,0x00,0x00,0x00,0x48,0x00,0x00,0x00,0x01,0x00,0x00,0x00,
0x10,0x00,0x00,0x00,0x32,0x00,0x00,0x00,0x73,0x65,0x71,0x75,
0x65,0x6e,0x74,0x69,0x61,0x6c,0x2f,0x64,0x65,0x6e,0x73,0x65,
0x5f,0x31,0x2f,0x42,0x69,0x61,0x73,0x41,0x64,0x64,0x2f,0x52,
0x65,0x61,0x64,0x56,0x61,0x72,0x69,0x61,0x62,0x6c,0x65,0x4f,
0x70,0x2f,0x72,0x65,0x73,0x6f,0x75,0x72,0x63,0x65,0x00,0x00,
0x04,0x00,0x06,0x00,0x04,0x00,0x00,0x00,0x00,0x00,0x06,0x00,
0x08,0x00,0x04,0x00,0x06,0x00,0x00,0x00,0x04,0x00,0x00,0x00,
0x80,0x00,0x00,0x00,0x00,0x00,0x00,0x00,0x1a,0x6c,0xcf,0xbd,
0x00,0x00,0x00,0x00,0xa5,0x92,0xa2,0x3e,0x00,0x00,0x00,0x00,
0x27,0x71,0xb9,0xbb,0xaa,0x01,0xc4,0x3d,0xe7,0xb6,0xcb,0xbe,
0x00,0x00,0x00,0x00,0x00,0x00,0x00,0x00,0x0c,0x7b,0xba,0xbe,
0x00,0x00,0x00,0x00,0x00,0x00,0x00,0x00,0xb5,0xed,0x9a,0x3e,
0x88,0x5c,0x09,0xba,0x00,0x00,0x00,0x00,0x00,0x00,0x00,0x00,
0x8d,0x28,0x69,0x3e,0xe1,0x8a,0xe9,0xbd,0x00,0x00,0x00,0x00,
0x00,0x00,0x00,0x00,0x00,0x00,0x00,0x00,0x00,0x00,0x00,0x00,
0x00,0x00,0x00,0x00,0x41,0xda,0xa7,0xbe,0x00,0x00,0x00,0x00,
0x00,0x00,0x00,0x00,0x00,0x00,0x00,0x00,0x00,0x00,0x00,0x00,
0x27,0x57,0x9c,0xbe,0x10,0xf9,0x92,0x3e,0x00,0x00,0x00,0x00,
0x00,0x00,0x0e,0x00,0x14,0x00,0x04,0x00,0x00,0x00,0x08,0x00,
0x0c,0x00,0x10,0x00,0x0e,0x00,0x00,0x00,0x10,0x00,0x00,0x00,
0x02,0x00,0x00,0x00,0x10,0x00,0x00,0x00,0x44,0x00,0x00,0x00,
0x01,0x00,0x00,0x00,0x20,0x00,0x00,0x00,0x30,0x00,0x00,0x00,
0x73,0x65,0x71,0x75,0x65,0x6e,0x74,0x69,0x61,0x6c,0x2f,0x64,
0x65,0x6e,0x73,0x65,0x2f,0x42,0x69,0x61,0x73,0x41,0x64,0x64,
0x2f,0x52,0x65,0x61,0x64,0x56,0x61,0x72,0x69,0x61,0x62,0x6c,
0x65,0x4f,0x70,0x2f,0x72,0x65,0x73,0x6f,0x75,0x72,0x63,0x65,
0x00,0x00,0x00,0x00,0xa4,0xff,0xff,0xff,0x14,0x00,0x18,0x00,
0x04,0x00,0x00,0x00,0x08,0x00,0x0c,0x00,0x10,0x00,0x00,0x00,
0x00,0x00,0x14,0x00,0x14,0x00,0x00,0x00,0x14,0x00,0x00,0x00,
0x01,0x00,0x00,0x00,0x24,0x00,0x00,0x00,0x30,0x00,0x00,0x00,
0x10,0x00,0x00,0x00,0x02,0x00,0x00,0x00,0x01,0x00,0x00,0x00,
0x01,0x00,0x00,0x00,0x02,0x00,0x00,0x00,0xff,0xff,0xff,0xff,
0x01,0x00,0x00,0x00,0x0b,0x00,0x00,0x00,0x64,0x65,0x6e,0x73,
0x65,0x5f,0x69,0x6e,0x70,0x75,0x74,0x00,0xfc,0xff,0xff,0xff,
0x04,0x00,0x04,0x00,0x04,0x00,0x00,0x00
};

#endif //SINE_3L_MODEL_TFLITE_H